#include <cstdint>

alignas(8) const unsigned char g_model[] = {
0x1c,0x00,0x00,0x00,0x54,0x46,0x4c,0x33,0x14,0x00,0x20,0x00,
0x1c,0x00,0x18,0x00,0x14,0x00,0x10,0x00,0x0c,0x00,0x00,0x00,
0x08,0x00,0x04,0x00,0x14,0x00,0x00,0x00,0x1c,0x00,0x00,0x00,
0x98,0x00,0x00,0x00,0xf0,0x00,0x00,0x00,0x14,0x15,0x00,0x00,
0x24,0x15,0x00,0x00,0x0c,0x1a,0x00,0x00,0x03,0x00,0x00,0x00,
0x01,0x00,0x00,0x00,0x10,0x00,0x00,0x00,0x00,0x00,0x0a,0x00,
0x10,0x00,0x0c,0x00,0x08,0x00,0x04,0x00,0x0a,0x00,0x00,0x00,
0x0c,0x00,0x00,0x00,0x1c,0x00,0x00,0x00,0x3c,0x00,0x00,0x00,
0x0f,0x00,0x00,0x00,0x73,0x65,0x72,0x76,0x69,0x6e,0x67,0x5f,
0x64,0x65,0x66,0x61,0x75,0x6c,0x74,0x00,0x01,0x00,0x00,0x00,
0x04,0x00,0x00,0x00,0x90,0xff,0xff,0xff,0x09,0x00,0x00,0x00,
0x04,0x00,0x00,0x00,0x08,0x00,0x00,0x00,0x6f,0x75,0x74,0x70,
0x75,0x74,0x5f,0x30,0x00,0x00,0x00,0x00,0x01,0x00,0x00,0x00,
0x04,0x00,0x00,0x00,0xba,0xeb,0xff,0xff,0x04,0x00,0x00,0x00,
0x0c,0x00,0x00,0x00,0x6b,0x65,0x72,0x61,0x73,0x5f,0x74,0x65,
0x6e,0x73,0x6f,0x72,0x00,0x00,0x00,0x00,0x02,0x00,0x00,0x00,
0x34,0x00,0x00,0x00,0x04,0x00,0x00,0x00,0xdc,0xff,0xff,0xff,
0x0c,0x00,0x00,0x00,0x04,0x00,0x00,0x00,0x13,0x00,0x00,0x00,
0x43,0x4f,0x4e,0x56,0x45,0x52,0x53,0x49,0x4f,0x4e,0x5f,0x4d,
0x45,0x54,0x41,0x44,0x41,0x54,0x41,0x00,0x08,0x00,0x0c,0x00,
0x08,0x00,0x04,0x00,0x08,0x00,0x00,0x00,0x0b,0x00,0x00,0x00,
0x04,0x00,0x00,0x00,0x13,0x00,0x00,0x00,0x6d,0x69,0x6e,0x5f,
0x72,0x75,0x6e,0x74,0x69,0x6d,0x65,0x5f,0x76,0x65,0x72,0x73,
0x69,0x6f,0x6e,0x00,0x0d,0x00,0x00,0x00,0x20,0x14,0x00,0x00,
0x18,0x14,0x00,0x00,0xc8,0x13,0x00,0x00,0xb0,0x0b,0x00,0x00,
0x9c,0x0b,0x00,0x00,0x4c,0x0b,0x00,0x00,0xbc,0x0a,0x00,0x00,
0xac,0x00,0x00,0x00,0xa4,0x00,0x00,0x00,0x9c,0x00,0x00,0x00,
0x94,0x00,0x00,0x00,0x74,0x00,0x00,0x00,0x04,0x00,0x00,0x00,
0x6a,0xec,0xff,0xff,0x04,0x00,0x00,0x00,0x60,0x00,0x00,0x00,
0x10,0x00,0x00,0x00,0x00,0x00,0x00,0x00,0x08,0x00,0x0e,0x00,
0x08,0x00,0x04,0x00,0x08,0x00,0x00,0x00,0x10,0x00,0x00,0x00,
0x24,0x00,0x00,0x00,0x00,0x00,0x06,0x00,0x08,0x00,0x04,0x00,
0x06,0x00,0x00,0x00,0x04,0x00,0x00,0x00,0x00,0x00,0x00,0x00,
0x0c,0x00,0x18,0x00,0x14,0x00,0x10,0x00,0x0c,0x00,0x04,0x00,
0x0c,0x00,0x00,0x00,0xcc,0x9a,0xf7,0x06,0x2b,0xf8,0x00,0x5d,
0x02,0x00,0x00,0x00,0x02,0x00,0x00,0x00,0x04,0x00,0x00,0x00,
0x06,0x00,0x00,0x00,0x32,0x2e,0x31,0x38,0x2e,0x30,0x00,0x00,
0xd6,0xec,0xff,0xff,0x04,0x00,0x00,0x00,0x10,0x00,0x00,0x00,
0x31,0x2e,0x35,0x2e,0x30,0x00,0x00,0x00,0x00,0x00,0x00,0x00,
0x00,0x00,0x00,0x00,0xd0,0xe7,0xff,0xff,0xd4,0xe7,0xff,0xff,
0xd8,0xe7,0xff,0xff,0xfe,0xec,0xff,0xff,0x04,0x00,0x00,0x00,
0x00,0x0a,0x00,0x00,0xdb,0xde,0x8f,0x3e,0x8d,0xa0,0x84,0x3e,
0x8e,0xf3,0x3e,0x3e,0xf1,0xcd,0xa1,0x3c,0xb5,0xed,0x81,0xbe,
0xb6,0xea,0x29,0x3e,0x8b,0x67,0x50,0xbd,0xbd,0x2a,0xc5,0xbc,
0x75,0xf1,0x8d,0x3e,0x54,0xab,0x55,0xbd,0xf6,0x87,0xc8,0x3c,
0x58,0x2a,0x80,0xbe,0x70,0xdc,0x97,0x3e,0x88,0x81,0xa4,0xbe,
0x0c,0xba,0x16,0x3e,0x37,0x00,0x25,0x3e,0xde,0xfa,0x81,0x3e,
0x42,0x06,0xa6,0x3e,0x9d,0x1a,0x8e,0x3d,0xe0,0x14,0x12,0xbd,
0xa0,0x65,0xc9,0xbc,0xff,0xc4,0x39,0xbe,0xf8,0x9a,0x9d,0x3e,
0x2a,0x64,0x43,0xbe,0xe4,0x48,0x7b,0xbe,0x48,0x2b,0x34,0x3d,
0x78,0x0a,0x5b,0x3d,0xc4,0xa5,0x2f,0x3e,0xa0,0x56,0x59,0x3e,
0x40,0xaa,0x63,0x3d,0x91,0xaf,0x81,0xbe,0x26,0xc1,0x0e,0xbe,
0xe7,0x19,0x83,0xbe,0x54,0x36,0x81,0x3e,0xb3,0xe7,0x12,0xbe,
0xc0,0x52,0x21,0xbd,0x84,0x49,0x6c,0xbe,0x49,0xd6,0x0f,0xbe,
0x28,0x0a,0xa1,0x3d,0xea,0x67,0x18,0x3e,0x19,0x94,0x8a,0xbe,
0xd6,0x19,0xb0,0xbd,0xbf,0xd0,0x72,0x3e,0xc1,0xfb,0xae,0xbe,
0x6e,0xca,0x3c,0x3e,0x3e,0xa5,0x5c,0x3e,0x99,0x92,0x66,0xbd,
0x61,0x2a,0x86,0x3e,0xb6,0x73,0x07,0xbe,0x57,0x8e,0x96,0xbe,
0x44,0xe5,0x05,0x3e,0xc3,0xae,0x82,0x3e,0x43,0xa8,0xa3,0x3e,
0xf8,0x1a,0x59,0xbe,0x44,0xe8,0x87,0xbd,0xae,0x31,0xcd,0x3d,
0x9c,0xbf,0xa1,0x3e,0xbe,0x83,0x66,0x3e,0xda,0x25,0x3b,0x3e,
0x28,0xa7,0x35,0xbe,0x3e,0x8e,0x88,0x3e,0xe1,0x1d,0x13,0xbe,
0xc0,0x89,0x00,0x3c,0xc8,0xdd,0x05,0xbd,0x13,0xd2,0x4d,0xbe,
0xd6,0x6a,0x75,0xbe,0x8c,0xa7,0x00,0xbe,0x00,0xe3,0x81,0x3b,
0xce,0x43,0x9a,0xbe,0x7a,0x34,0xc4,0xbd,0x04,0xd1,0x6e,0xbe,
0xf0,0xd9,0xa7,0x3c,0x6e,0xcc,0x84,0xbe,0x09,0xc7,0xad,0xbe,
0x8a,0xf9,0x85,0xbe,0xd0,0x7b,0x0e,0x3e,0xd0,0x2f,0xb5,0xbd,
0x4c,0xb6,0xe9,0xbd,0xab,0x2f,0x56,0xbe,0x0a,0xef,0xcc,0xbd,
0x5c,0x1c,0x61,0x3e,0x64,0xf7,0xad,0xbc,0x3c,0xf4,0x9d,0xbe,
0x79,0xc6,0x8c,0x3e,0x1d,0x52,0x78,0x3e,0x37,0x3d,0x86,0xbe,
0x42,0x8f,0x47,0xbc,0xfc,0x3e,0x0b,0x3e,0xc1,0x5c,0x37,0x3e,
0x2f,0x7a,0xc1,0x3d,0x51,0x5d,0x02,0xbd,0x1e,0xdd,0x03,0xbd,
0x6c,0xf4,0x2b,0x3e,0x6d,0xe8,0x81,0x3e,0x7b,0xef,0x59,0xbe,
0x8f,0xdb,0x25,0x3e,0x60,0x06,0x50,0xbe,0x1b,0x25,0x4f,0x3d,
0xff,0xf5,0x1a,0xbe,0x87,0x45,0x44,0xbd,0x00,0x24,0x3e,0xba,
0x30,0x83,0x27,0xbe,0x20,0x35,0x89,0x3c,0x00,0x20,0xc8,0xba,
0xb5,0x37,0x9e,0xbe,0x9c,0xab,0x92,0x3e,0xcc,0x14,0x8e,0xbd,
0x50,0x70,0x76,0xbd,0x11,0xac,0x33,0xbe,0xd5,0x57,0x17,0xbe,
0x20,0xad,0xc8,0xbd,0x2c,0x40,0xe3,0x3d,0x80,0xd4,0x7b,0x3c,
0xc8,0x98,0x04,0xbd,0xde,0x1c,0x81,0xbe,0x0f,0x21,0xa6,0xbe,
0xde,0xa5,0x1f,0xbe,0x57,0x99,0x69,0xbe,0x25,0xc1,0x66,0xbe,
0xa2,0x98,0xa3,0x3e,0xcc,0x7b,0x82,0xbd,0x06,0x3f,0x9e,0xbe,
0x0c,0x20,0xab,0x3d,0xfc,0x03,0x04,0xbe,0x42,0xfe,0x7b,0xbe,
0x40,0xd2,0x2a,0x3e,0xab,0xd5,0x27,0xbe,0xcc,0x7e,0x5f,0x3e,
0x2a,0x74,0x5f,0xbe,0xb8,0x7d,0x3d,0x3e,0x88,0x53,0x63,0xbd,
0xcc,0xfb,0x67,0x3e,0x01,0xa1,0x89,0xbe,0x86,0x39,0x37,0xbe,
0x40,0x4e,0x52,0xbd,0xe2,0x1f,0xab,0x3e,0x24,0x3e,0x1e,0xbe,
0x78,0x43,0x72,0xbe,0x8c,0x2a,0xea,0x3d,0xc9,0xb3,0x9d,0xbe,
0x8e,0xa5,0x13,0xbe,0xc2,0xc3,0x94,0x3e,0x69,0x71,0xc6,0x3c,
0xb6,0x4a,0xa0,0x3e,0x6b,0x2e,0x1f,0xbe,0xbd,0x8f,0x53,0x3e,
0xf5,0x6c,0x0d,0xbe,0x75,0x7c,0x59,0x3e,0x6f,0xbb,0xfa,0x3d,
0xc8,0x46,0x11,0x3e,0xd9,0xd4,0xa4,0x3e,0x35,0x62,0x81,0xbc,
0x3e,0x41,0x5a,0xbe,0xc6,0x5d,0x98,0x3e,0x75,0xb3,0xa7,0x3e,
0x6b,0x69,0x4b,0xbd,0x16,0xc7,0x2a,0xbd,0xbb,0x61,0xb8,0x3e,
0x17,0x5b,0xe6,0x3d,0xb2,0xcc,0x8c,0xbe,0x08,0xbf,0x12,0x3e,
0x09,0xe7,0xa0,0xbe,0xbd,0x76,0x8b,0x3d,0xd2,0x1d,0x8a,0x3e,
0x5f,0x28,0xf2,0x3d,0x36,0x71,0x5f,0x3e,0x3e,0x66,0x94,0xbd,
0x45,0xde,0x19,0x3e,0x35,0x34,0x12,0xbe,0xdf,0x5f,0x56,0x3e,
0xd7,0x81,0xb3,0xbd,0x46,0x56,0xdc,0x3d,0x19,0xc2,0x8a,0x3e,
0x47,0xc8,0xff,0xbd,0xbd,0x9d,0x5d,0xbe,0x90,0x2e,0xdb,0xbd,
0xff,0xa9,0x90,0xbe,0x67,0xae,0x39,0xbe,0xc5,0x0b,0xce,0x3d,
0x85,0x52,0x61,0x3e,0xac,0x86,0xd0,0xbd,0x25,0xf1,0xe9,0xbc,
0xfc,0xe2,0x63,0xbe,0x1a,0x7f,0x0d,0xbe,0x10,0x10,0xc1,0xbd,
0x2d,0x15,0xad,0xbe,0x88,0xbf,0xf1,0xbd,0x96,0x92,0xff,0x3c,
0x8a,0xbb,0x73,0x3e,0xd0,0x3f,0x05,0x3e,0x5d,0x91,0x9c,0xbd,
0x7b,0xf8,0x3a,0xbe,0x86,0x9a,0x44,0x3e,0xda,0x28,0x9a,0xbd,
0x69,0x3d,0x60,0x3e,0x82,0x17,0x62,0xbe,0xda,0xcf,0x89,0x3e,
0x66,0x7e,0x9e,0xbe,0x02,0xa7,0x78,0x3e,0x05,0x22,0x9b,0x3e,
0xd7,0x1e,0x25,0x3e,0xde,0x3f,0x0a,0xbe,0xc0,0x26,0xa4,0xbe,
0xf8,0x12,0x54,0x3e,0xb4,0x2d,0xb3,0xbe,0xae,0xd4,0x69,0x3d,
0x8b,0x0c,0xc1,0xbd,0xb7,0x8a,0x79,0x3c,0x21,0x0a,0x30,0xbe,
0x67,0x99,0x64,0xbd,0x37,0x48,0xee,0x3d,0x92,0x66,0xf5,0xbd,
0x9e,0xef,0x64,0x3e,0xd5,0xa0,0x5c,0xbd,0x28,0xfb,0x0a,0xbe,
0x5c,0x0f,0xae,0xbe,0xb9,0x41,0x12,0x3e,0x6e,0xe1,0xed,0x3d,
0x2c,0xb1,0x9c,0x3e,0x2a,0x0a,0x55,0x3e,0x12,0xe5,0x76,0xbe,
0xe1,0x60,0x1b,0xbe,0x07,0xfc,0xbe,0x3d,0xbd,0x11,0xb3,0xbe,
0xc3,0x48,0x9b,0xbe,0x02,0xf4,0x57,0xbd,0x27,0x06,0x9e,0xbe,
0x0f,0x41,0x40,0x3e,0xc4,0x23,0x9a,0x3e,0x1a,0xda,0x2c,0x3d,
0xbd,0x72,0xeb,0xbb,0xa4,0xad,0x8f,0xbe,0x9c,0x76,0x62,0x3e,
0x34,0xd1,0x81,0xbd,0x5f,0x77,0x98,0x3e,0xa3,0x58,0x7e,0x3e,
0xd9,0xea,0x7e,0x3e,0x71,0x03,0x10,0x3e,0xbf,0x4e,0xac,0xbe,
0xcd,0x77,0x99,0x3e,0xa3,0x70,0x61,0x3e,0x2c,0x61,0x9c,0x3e,
0x81,0x6a,0xb6,0xbc,0x42,0x3a,0x9a,0x3e,0xab,0xfe,0x79,0xbd,
0xc3,0xf5,0x22,0x3e,0xb7,0xf6,0x13,0xbe,0xda,0x13,0xd5,0x3d,
0x59,0xa9,0x03,0x3e,0xb7,0xea,0xf7,0x3d,0xba,0xd2,0xc0,0xbd,
0x5f,0x29,0x4f,0x3d,0xa4,0x4a,0x54,0x3c,0x3c,0xdf,0xaa,0xbe,
0x01,0xd6,0x52,0x3d,0x96,0xd4,0xd3,0xbc,0x0a,0x7a,0x0e,0xbe,
0xd6,0x92,0x3b,0x3e,0x0f,0x29,0x19,0xbe,0xf2,0xb0,0x95,0x3e,
0xbb,0x91,0x3e,0xbb,0x8c,0x40,0xfd,0x3c,0x5e,0x0b,0xae,0x3c,
0x3e,0xe8,0x8c,0x3e,0x3b,0xeb,0x10,0xbe,0x92,0x29,0xdd,0x3d,
0xd3,0x77,0x0d,0x3e,0xb3,0xeb,0x58,0xbe,0x63,0xae,0xa5,0x3e,
0x6f,0x69,0x8d,0xbe,0x1a,0x7d,0x89,0xbe,0x1d,0x36,0xa8,0xbe,
0x03,0xb7,0x48,0x3d,0x60,0xfc,0x85,0xbd,0xaa,0xbb,0x93,0x3d,
0x18,0x82,0xaf,0x3c,0x7d,0x47,0xa7,0x3d,0xa8,0x93,0xca,0xbd,
0x63,0xf5,0xa2,0x3e,0x90,0x72,0xa5,0x3d,0x69,0x9a,0xff,0xbd,
0xc1,0x53,0x96,0xbe,0x51,0xfd,0xa8,0xbe,0x0a,0x67,0xf0,0x3d,
0x70,0xf8,0x44,0x3e,0xcc,0x85,0xc7,0xbd,0xcb,0x45,0x43,0xbd,
0x2c,0xd3,0xb6,0xbd,0x29,0x7d,0x1a,0x3d,0xd4,0x8c,0x78,0xbd,
0x6c,0x68,0x2f,0xbe,0xb4,0xf5,0xf2,0x3d,0x50,0xa5,0x84,0x3d,
0x67,0x14,0x38,0xbe,0x1b,0xad,0xf1,0x3c,0xf6,0x6a,0x06,0xbd,
0xad,0x24,0x56,0x3e,0x57,0xc3,0x1c,0x3e,0xcc,0x97,0x78,0x3d,
0x7a,0xcf,0x94,0xbe,0xa8,0x1e,0x51,0xbd,0xc0,0x93,0x87,0x3e,
0x9c,0x34,0x86,0xbd,0x19,0x2a,0x36,0xbe,0xe8,0x24,0x60,0xbe,
0x7c,0xca,0x1f,0x3e,0x1f,0x62,0x3d,0xbe,0x68,0x3f,0xf7,0x3d,
0x60,0xb5,0xa7,0x3e,0xb5,0x5c,0xa2,0xbe,0xd4,0xe7,0x93,0xbe,
0x08,0x72,0x45,0xbd,0x30,0xe5,0x40,0xbd,0xac,0x05,0x2e,0x3e,
0x47,0x7b,0x3a,0xbe,0x40,0xa4,0x64,0x3d,0xd2,0xad,0xb8,0xbd,
0x44,0xea,0x78,0x3e,0x54,0x0e,0xce,0xbd,0x68,0x48,0x74,0xbe,
0xfd,0xc9,0x64,0x3e,0xf9,0x9a,0xaf,0xbc,0x67,0x73,0x5f,0x3e,
0x4b,0xa8,0x8d,0x3e,0x37,0xb2,0xa8,0x3d,0x12,0xca,0x09,0xbd,
0x24,0x6d,0x80,0x3e,0x00,0x29,0x05,0xbe,0xe5,0xbc,0x76,0x3e,
0xb8,0xc0,0xb8,0x3d,0x4e,0xf0,0xf1,0xbd,0x76,0x85,0x9e,0xbe,
0x62,0xad,0x38,0xbe,0x2f,0x4a,0x6d,0xbe,0xfc,0x5c,0x27,0xbe,
0xa0,0xb9,0xa4,0x3e,0xdf,0xda,0x87,0xbe,0x35,0x88,0x94,0x3e,
0x0c,0x08,0x93,0x3d,0x82,0x01,0x33,0xbc,0x8d,0x4f,0x39,0xbe,
0xfe,0xe2,0x97,0x3e,0xe6,0x2e,0xe1,0xbd,0xd8,0xdf,0x51,0xbd,
0x24,0x5a,0x77,0x3e,0x22,0x15,0x02,0x3e,0xb4,0xad,0x82,0x3e,
0x5b,0x8a,0x8a,0xbe,0x20,0xd2,0xe0,0xbd,0xa0,0xd6,0x60,0x3e,
0x18,0x96,0x17,0xbd,0x52,0xa6,0xeb,0xbd,0xe0,0x53,0x45,0xbd,
0xcc,0xc8,0xa7,0xbd,0xd1,0xdf,0x60,0xbe,0x17,0xa9,0x0b,0xbe,
0x28,0x1c,0x24,0x3e,0x5d,0x1f,0x89,0xbe,0xeb,0xeb,0x0c,0xbe,
0x80,0x79,0x09,0xbc,0x8c,0x20,0xc6,0xbd,0x4c,0x52,0x46,0x3e,
0x67,0xf0,0x0b,0xbe,0x12,0xeb,0x99,0x3e,0x78,0x11,0x89,0x3e,
0xe7,0x3a,0x3b,0xbe,0x50,0xf3,0x92,0x3d,0xdb,0x5c,0x90,0xbe,
0x0a,0x9e,0x8b,0x3e,0x80,0xcc,0x2c,0xbb,0x7e,0x41,0x7d,0xbe,
0x80,0xf7,0x20,0xbb,0x30,0x31,0xe4,0xbc,0xd9,0xc3,0x79,0xbe,
0x6c,0x2c,0xc1,0x3d,0x54,0xcd,0xcc,0xbd,0xf8,0xb0,0x66,0x3d,
0xb6,0x55,0x50,0xbe,0x71,0x72,0x3e,0xbe,0x88,0xfa,0x33,0x3d,
0x05,0xc8,0xa9,0x3e,0x3d,0x93,0x73,0x3e,0x9e,0xc6,0x1f,0x3e,
0xe4,0x2f,0x9f,0xbe,0x28,0xb4,0xa9,0xbd,0x93,0xff,0x07,0xbe,
0x44,0x7d,0x94,0x3e,0x83,0x79,0x62,0x3e,0xc7,0xcb,0x8b,0x3e,
0x0e,0x8c,0xa1,0x3e,0xea,0xa1,0xe7,0xbd,0x8f,0x41,0x92,0x3e,
0xdf,0x67,0xb2,0xbc,0xb1,0x91,0x3b,0xbe,0xc7,0x78,0x49,0xbd,
0x3b,0x34,0x60,0x3e,0xda,0xb2,0x45,0xbd,0x4b,0x1c,0xbc,0x3d,
0xcd,0xf4,0x6d,0x3e,0x15,0xd1,0x16,0xbe,0xcb,0xcd,0x8d,0xbc,
0x1f,0x36,0xa5,0x3c,0xa9,0x86,0x0b,0x3e,0xd0,0xda,0x99,0x3e,
0xc2,0xea,0x83,0xbe,0x46,0xba,0x2c,0x3e,0x71,0xc5,0x7b,0x3e,
0x29,0xd9,0x99,0xbe,0x88,0x8e,0x99,0x3e,0x70,0x23,0xd5,0x3d,
0xf1,0x41,0x8d,0xbe,0x4d,0x59,0xd0,0xbd,0xd0,0x09,0x73,0x3e,
0x2d,0x3a,0x8c,0x3e,0x60,0x10,0xb0,0xbe,0xd9,0x38,0x73,0x3d,
0x32,0x39,0x60,0xbe,0xfc,0x33,0x89,0xbe,0x83,0x8a,0x9f,0xbc,
0x5a,0x13,0x4e,0xbe,0x6f,0x16,0x63,0x3e,0x04,0x3a,0x86,0xbe,
0x97,0x7a,0x38,0x3d,0x88,0x3b,0xa2,0xbe,0xd6,0x94,0x0e,0xbe,
0x95,0x16,0xbe,0xbd,0xc2,0xa3,0x36,0xbc,0x3a,0xc8,0x64,0x3c,
0x84,0x55,0x18,0xbe,0x3c,0x32,0x32,0x3e,0x3a,0x9b,0x55,0xbe,
0xb1,0x7d,0x59,0xbe,0x81,0x34,0x77,0xbe,0xba,0x33,0x02,0x3d,
0x5c,0x2f,0x83,0xbc,0x4f,0xe5,0x0c,0xbe,0x43,0xd0,0x63,0xbe,
0x99,0x18,0x75,0xbb,0x7d,0x20,0xb1,0x3e,0xe6,0x13,0xae,0x3d,
0x40,0x5a,0x0f,0xbe,0x3c,0x7f,0x28,0xbe,0x0f,0x91,0xe1,0x3d,
0x5e,0x82,0x6c,0xbe,0xe8,0x10,0x0a,0xbe,0x4c,0x31,0x3d,0x3e,
0x10,0x7a,0x5b,0xbd,0x2f,0x17,0xb1,0x3d,0x83,0x93,0x04,0x3c,
0x39,0xee,0x0e,0x3e,0xd2,0xf1,0xac,0xbd,0x82,0x15,0x8f,0x3d,
0xe0,0x37,0x86,0x3e,0x73,0x81,0x59,0x3e,0x9e,0x9a,0x90,0x3d,
0x65,0xae,0x52,0x3c,0x93,0xbb,0x9e,0xbe,0x86,0x34,0xa3,0x3e,
0xce,0x79,0x89,0x3e,0x59,0xa4,0x94,0xbe,0x88,0x24,0x94,0xbe,
0xa9,0x98,0x14,0x3c,0x1e,0xf3,0x8f,0x3e,0xd5,0x53,0x95,0x3e,
0x4b,0x1a,0x05,0xbd,0x80,0x11,0xe9,0x3d,0xfd,0x43,0x48,0x3e,
0xcb,0x68,0x62,0xbc,0x01,0x7b,0x0c,0x3e,0x87,0xc8,0x50,0xbe,
0x3b,0xd2,0xeb,0xbd,0x63,0x28,0xfa,0xbd,0x32,0x58,0x32,0x3e,
0x2e,0xb7,0x12,0x3e,0x93,0x29,0x92,0x3c,0x44,0x56,0x69,0x3e,
0xfa,0x38,0x42,0x3e,0xfc,0x4f,0xdc,0xbd,0x85,0xf8,0xd3,0x3d,
0xec,0xa9,0x2b,0xbe,0xae,0xc1,0xae,0x3c,0x0a,0x36,0x8c,0x3e,
0x62,0x26,0x87,0xbe,0x3b,0x93,0x6e,0xbe,0x1a,0x95,0x2b,0xbe,
0xcb,0x5b,0x52,0x3e,0x85,0x3b,0x8f,0xbe,0x72,0x3a,0x3e,0xbe,
0xdc,0xf0,0x38,0xbd,0x2d,0x2b,0x9e,0x3e,0xba,0xd4,0xb0,0x3d,
0x32,0xdb,0x93,0xbd,0x36,0x03,0xa2,0x3d,0x3d,0x68,0x7e,0x3e,
0x24,0x79,0x7c,0xbe,0xb3,0x4d,0x92,0x3d,0xef,0xfb,0xc5,0x3d,
0x03,0xa0,0xaa,0xbe,0x98,0x0f,0x3b,0xbe,0x23,0x01,0x84,0xbe,
0xe0,0x76,0x7b,0xbd,0x60,0x83,0xa8,0x3d,0x88,0x52,0xc4,0x3d,
0xc0,0x47,0x82,0xbd,0xd0,0xff,0xfb,0x3d,0x62,0x6d,0x5d,0xbe,
0xcc,0xff,0x08,0x3e,0xb0,0x2e,0xc0,0x3d,0xa8,0x25,0x29,0xbe,
0x6a,0x95,0x8b,0x3e,0x3a,0x86,0x99,0x3e,0x74,0xa6,0x1d,0x3e,
0x5a,0x09,0xc2,0xbd,0xf1,0x05,0x18,0xbe,0xe8,0x88,0xc7,0xbd,
0x45,0xf2,0x97,0xbe,0x05,0x67,0x34,0xbe,0x7d,0x84,0xa3,0xbe,
0xec,0x5e,0xa3,0xbe,0x99,0x52,0x6d,0xbe,0xd6,0x4d,0x63,0x3e,
0x7e,0x27,0xd0,0x3c,0xf2,0xe6,0xb2,0xbd,0x71,0xbd,0x9b,0x3d,
0x3c,0x31,0x8f,0xbe,0x51,0x3f,0x4a,0x3e,0x9e,0x75,0xb6,0x3d,
0x4b,0xd2,0xbd,0x3c,0x54,0xaa,0x42,0xbe,0x92,0xe7,0x3a,0xbe,
0x14,0x2c,0xce,0x3d,0xbf,0x5c,0x4c,0xbd,0xaa,0xeb,0xd1,0xbd,
0xf7,0x4e,0x6b,0x3d,0xb5,0xdb,0x04,0xbd,0x4e,0x12,0x31,0xbe,
0xc0,0x2c,0x86,0x3d,0x75,0xf3,0x58,0x3e,0x8e,0x43,0xa1,0xbe,
0x81,0x32,0x75,0x3e,0xa2,0xb8,0x7b,0x3d,0x7d,0x46,0x90,0x3e,
0x97,0x8d,0x65,0x3e,0x64,0x44,0x46,0x3d,0xf9,0x8e,0x22,0xbe,
0xd4,0x93,0x84,0x3d,0x12,0xb9,0xae,0x3d,0x4a,0xa9,0x1e,0x3e,
0xf3,0x46,0x95,0xbd,0x82,0x7c,0x32,0x3d,0xe5,0x12,0x27,0xbd,
0x19,0x66,0x6a,0x3e,0x02,0x20,0x00,0xbe,0x3d,0x42,0xa7,0xbc,
0xf9,0xf6,0x92,0xbe,0x31,0xcc,0x81,0x3e,0x58,0xcc,0x96,0x3e,
0xa5,0x65,0x83,0xbe,0xdc,0xc2,0x8f,0xbe,0x60,0x00,0x3a,0xbe,
0x20,0xac,0x8e,0xbe,0x15,0x47,0xa8,0x3e,0x65,0x57,0xca,0x3c,
0x89,0xf1,0x41,0xbe,0x5b,0x9f,0x18,0x3d,0x11,0x0c,0x8a,0x3e,
0x14,0xbb,0x24,0xbe,0x29,0x77,0x78,0x3e,0x62,0xac,0x67,0xbe,
0xca,0x11,0xa5,0x3e,0xd3,0xd8,0x03,0xbe,0x8a,0x40,0xbe,0x3e,
0x57,0x27,0xb9,0x3d,0xad,0x16,0x5d,0x3d,0xa5,0xf7,0xbe,0x3c,
0xbc,0xf1,0x34,0x3d,0xd8,0xf9,0x21,0x3e,0xa0,0xd8,0x65,0x3c,
0x04,0x1d,0x47,0x3e,0xc6,0x86,0x03,0x3d,0xcb,0x8a,0x86,0xbe,
0x65,0x49,0x49,0xbd,0xec,0x9e,0x43,0x3e,0xdc,0x2d,0xfb,0x3d,
0xba,0xce,0xb4,0xbd,0x3f,0xf4,0xd9,0x3d,0xaa,0xf0,0xab,0x3e,
0xf7,0xec,0x3a,0x3d,0x07,0xf1,0xda,0x3b,0xfb,0x13,0x62,0xbe,
0x5d,0xc8,0x43,0xbe,0xe2,0xe8,0xa0,0xbe,0xdb,0xa1,0x57,0xbe,
0x56,0x7a,0x94,0xbe,0x48,0x3f,0x9b,0x3e,0x13,0x11,0x8b,0x3d,
0xf8,0x43,0x0f,0x3e,0x02,0x5a,0xa3,0x3e,0x00,0x83,0x5e,0xbe,
0x5d,0x0f,0xf7,0x3d,0x85,0xd2,0x5c,0x3d,0x3e,0x8e,0x3f,0x3e,
0x8b,0xac,0x94,0xbd,0x2e,0xc2,0x40,0xbc,0xdc,0x2a,0xde,0x3b,
0xd0,0xc5,0x33,0x3e,0x31,0x5f,0xaa,0x3e,0x77,0x97,0x13,0x3e,
0xb9,0xa0,0x92,0x3e,0x78,0x85,0x9f,0xbe,0x90,0xb6,0x31,0xbd,
0x00,0xe3,0x80,0x3d,0xd9,0x03,0xaf,0x3e,0x7a,0xb9,0x9e,0x3e,
0xc7,0xc0,0x80,0x3e,0x3d,0xc9,0x5e,0xbe,0x0a,0x72,0x03,0x3e,
0xa9,0x3c,0x55,0x3e,0xc0,0x7a,0x81,0xbe,0x03,0xa6,0x81,0x3e,
0x08,0x61,0xe9,0x3d,0x0d,0x19,0x00,0xbe,0xd7,0xc1,0x00,0x3e,
0x43,0x2a,0xa9,0x3d,0xb3,0xf3,0x5f,0xbe,0xf5,0x30,0x5c,0xbe,
0x92,0xf1,0x0d,0x3e,0xf8,0xff,0x3e,0x3e,0x1c,0x51,0x76,0xbe,
0x11,0x7c,0x82,0x3d,0x11,0x64,0x58,0x3e,0xe1,0xc1,0x9a,0x3e,
0x98,0x04,0x84,0x3e,0x94,0xca,0x39,0x3e,0x70,0xf1,0x86,0x3d,
0x67,0x9a,0xe9,0x3d,0xa6,0xf9,0xca,0x3d,0x22,0x46,0xbb,0x3d,
0xc8,0x85,0x7d,0x3d,0xcc,0x0d,0xb2,0x3d,0x0a,0xf7,0xff,0xff,
0x04,0x00,0x00,0x00,0x80,0x00,0x00,0x00,0x7e,0x04,0x26,0xbc,
0x00,0x00,0x00,0x00,0xd1,0x75,0xf7,0xbb,0x00,0x00,0x00,0x00,
0x17,0x8c,0xad,0x3a,0x00,0x00,0x00,0x00,0x00,0x00,0x00,0x00,
0x1d,0x40,0x13,0x3d,0x32,0x09,0xb1,0x3c,0xab,0x3a,0x8c,0xbc,
0x06,0xc3,0xdc,0xbc,0x56,0xf2,0x7a,0xbc,0x12,0xd8,0xce,0xbb,
0xda,0x78,0x5e,0xbc,0xa5,0x05,0x67,0xbc,0x00,0x00,0x00,0x00,
0xe2,0x75,0x93,0x3c,0x00,0x00,0x00,0x00,0x00,0x00,0x00,0x00,
0xcc,0xe9,0x52,0xb9,0xd6,0x20,0xb5,0xbb,0xe1,0xaa,0xf2,0x3b,
0x95,0x68,0x4b,0xbb,0x05,0x10,0x6b,0xbc,0x87,0x2e,0x3b,0xbc,
0x00,0x00,0x00,0x00,0x36,0x3d,0x81,0x3c,0xf0,0x3c,0x32,0x3a,
0x68,0x89,0xd3,0x3c,0x6c,0x2c,0xb2,0x3c,0x6e,0x03,0x64,0x3c,
0xdc,0xca,0xf1,0xbb,0x96,0xf7,0xff,0xff,0x04,0x00,0x00,0x00,
0x40,0x00,0x00,0x00,0x06,0x8c,0xfc,0x3b,0x41,0x51,0xec,0xbb,
0x40,0xfc,0x44,0x3c,0x75,0x7f,0x58,0xbc,0x00,0x00,0x00,0x00,
0xb9,0xb5,0xa6,0xbb,0x00,0x00,0x00,0x00,0x00,0x00,0x00,0x00,
0x15,0x2d,0xa0,0xbc,0x6d,0x93,0x03,0xbd,0x00,0x00,0x00,0x00,
0x50,0x8c,0x87,0xbc,0x00,0x00,0x00,0x00,0xf3,0xcb,0xd6,0xbc,
0x75,0x82,0x6e,0xbc,0xac,0x3b,0x34,0xbb,0xe2,0xf7,0xff,0xff,
0x04,0x00,0x00,0x00,0x04,0x00,0x00,0x00,0x11,0x48,0xe2,0x3c,
0xf2,0xf7,0xff,0xff,0x04,0x00,0x00,0x00,0x00,0x08,0x00,0x00,
0x37,0x31,0x6a,0xbe,0x7b,0x48,0xa3,0x3e,0xd0,0xad,0x10,0x3e,
0x24,0x7c,0xb2,0x3d,0x2e,0xa3,0xbd,0xbe,0x06,0xb0,0x3f,0x3e,
0xae,0x5c,0x30,0x3e,0xb2,0x1c,0x08,0x3e,0x88,0xf5,0x8b,0xbe,
0xf3,0x9f,0x98,0xbe,0x69,0x2d,0x75,0xbe,0x88,0x8a,0x73,0x3e,
0xed,0xe8,0x74,0x3e,0x12,0x93,0x72,0xbe,0x85,0xbc,0x3a,0xbe,
0xda,0x9d,0x69,0x3e,0xa2,0x0a,0xa4,0xbd,0xf8,0x2f,0x8f,0xbd,
0x9b,0x32,0x92,0x3e,0x8c,0x99,0x03,0x3e,0x46,0xef,0x50,0x3e,
0x78,0x4b,0x37,0x3e,0x53,0x03,0x1e,0xbd,0xa8,0x69,0xec,0x3b,
0x47,0x79,0xbe,0x3d,0xc9,0xf5,0xa4,0xbe,0xf2,0x8a,0x01,0x3e,
0x31,0x65,0x1a,0x3e,0xdf,0xca,0x91,0xbe,0x7f,0xbe,0x9c,0xbe,
0xff,0xe4,0x2a,0x3e,0x31,0x7d,0xd6,0x3c,0x24,0x92,0x77,0x3d,
0xd3,0xa3,0x8e,0x3e,0x79,0x2b,0xa2,0x3c,0xa0,0x11,0xbd,0x3c,
0x01,0x64,0x14,0x3d,0x75,0x44,0x9b,0x3e,0x80,0x2b,0xd0,0xbd,
0xd2,0xf9,0x92,0xbe,0x23,0x51,0x56,0xbe,0x23,0x77,0xe7,0x3c,
0x93,0x67,0x23,0x3e,0x31,0xbc,0x9f,0x3e,0x1e,0xd9,0x0f,0xbe,
0xd1,0x48,0x9c,0xbe,0xd9,0x3b,0x54,0xbe,0x90,0x8e,0x08,0x3d,
0xe1,0x76,0x99,0xbe,0x00,0x68,0x97,0xbb,0x43,0xba,0x90,0x3e,
0x15,0x31,0xb1,0x3d,0xef,0xb3,0x4f,0xbe,0x12,0x7f,0xd2,0x3d,
0x75,0x38,0x1f,0xbd,0x6e,0x86,0x8a,0xbe,0xae,0x21,0x26,0x3e,
0x3b,0x68,0x46,0xbe,0x5b,0xbf,0xc3,0xbe,0xac,0x03,0xd2,0x3d,
0x8d,0x40,0x9a,0xbe,0x6f,0x88,0xa5,0xbe,0xde,0x5a,0x40,0xbe,
0xf3,0x98,0x81,0x3e,0x5a,0x2e,0x4a,0x3e,0x40,0x1e,0xb5,0xbc,
0x44,0xfa,0xe3,0xbc,0x2e,0x97,0x79,0x3e,0xa5,0x71,0xfd,0x3c,
0xb0,0xd1,0xe1,0xbc,0xbc,0x35,0x90,0xbe,0xfa,0x01,0x9c,0x3d,
0x23,0x1e,0x96,0x3e,0xb3,0xcc,0x05,0xbe,0x28,0x5f,0x61,0xbe,
0x47,0x73,0x14,0x3e,0x41,0x48,0xa8,0xbd,0xd1,0x76,0xa4,0xbd,
0x0b,0x46,0x8f,0xbe,0x3e,0x97,0x23,0x3e,0x7a,0x30,0x99,0x3e,
0xb4,0x9b,0x01,0x3e,0x6f,0x3b,0xa6,0x3e,0x7a,0x85,0xdc,0xbd,
0xd9,0x26,0x2b,0xbe,0x0b,0xdd,0x81,0x3e,0x07,0xc4,0x88,0xbe,
0x73,0x7e,0x0e,0x3e,0x30,0x8f,0x83,0xbc,0x34,0xb9,0x9a,0x3d,
0x1a,0xd0,0x32,0x3e,0x43,0x76,0x03,0xbe,0x45,0xe2,0x8d,0x3e,
0xa0,0x88,0x75,0x3d,0xb6,0xb5,0xa6,0x3e,0x37,0x0d,0xa8,0x3d,
0x3c,0x50,0x70,0xbe,0x30,0x38,0x9d,0x3c,0x73,0xd9,0x02,0xbe,
0x3a,0x82,0x2e,0x3e,0xb5,0x11,0x40,0xbe,0x6c,0x13,0x31,0xbe,
0xf0,0xd6,0x8f,0x3d,0x6a,0xfa,0x08,0xbe,0x9b,0x5c,0xbf,0x3d,
0x11,0x87,0x37,0xbd,0xe3,0xd8,0x77,0xbd,0xe6,0xdf,0x9d,0x3e,
0xc3,0x2b,0x9d,0xbd,0x5f,0x8d,0x2c,0x3d,0x5d,0xea,0x05,0xbe,
0xe9,0x7c,0x98,0x3e,0x65,0x4d,0x2a,0xbe,0x1c,0x79,0x92,0xbe,
0xc8,0x27,0x1e,0xbd,0x22,0x84,0x83,0xbe,0xea,0xfd,0x5f,0xbd,
0xc4,0x22,0xd5,0xbd,0x59,0xf2,0x9b,0xbd,0x76,0x93,0x4c,0xbd,
0x09,0x34,0x5d,0x3e,0x5a,0x48,0x48,0x3e,0x28,0x7a,0xcd,0xbe,
0xc3,0xe7,0x86,0xbe,0x0e,0x02,0x5c,0xbe,0x72,0x31,0x06,0x3e,
0x50,0x7e,0x96,0x3e,0x61,0xc8,0x64,0x3e,0x68,0x23,0xc8,0x3d,
0xca,0x75,0x33,0x3e,0xfb,0x99,0xa5,0x3e,0xf8,0x91,0x2d,0xbe,
0x9e,0x99,0xdf,0xbd,0x20,0xea,0xb8,0x3c,0xbc,0xdf,0xb4,0x3d,
0x40,0x7c,0x49,0x3d,0x00,0x6a,0x6d,0x3c,0x6d,0x5c,0x8a,0xbe,
0x96,0x96,0x7d,0x3e,0x1d,0x4c,0xa6,0xbe,0x2c,0x13,0xa5,0x3d,
0x20,0xc6,0xad,0xbd,0x22,0xfb,0xdb,0xbd,0xaa,0xdf,0x25,0x3e,
0x24,0x69,0x9b,0x3d,0x5d,0x42,0x94,0xbe,0xc8,0x84,0xae,0x3d,
0x10,0xda,0x90,0x3c,0xe4,0x3c,0x8f,0xbe,0x7c,0xc0,0x8f,0x3d,
0xe4,0xda,0x9c,0xbe,0xea,0x68,0xb3,0xbe,0x26,0xbd,0x4b,0x3e,
0x91,0xa5,0xa1,0x3e,0x00,0x02,0x2b,0xbc,0x10,0xfb,0x07,0x3e,
0x98,0x5e,0x84,0x3d,0x43,0x97,0xad,0x3e,0x2c,0xd6,0xa8,0xbd,
0x8b,0x43,0x8a,0xbe,0x93,0x98,0x54,0x3d,0x70,0x40,0x92,0xbc,
0xa6,0x05,0x89,0xbd,0xe4,0x01,0x69,0xbe,0x30,0xa8,0xf3,0x3d,
0x24,0xf9,0x99,0x3d,0xa4,0x49,0x3f,0xbe,0x99,0x38,0xad,0xbe,
0xfc,0xf6,0x9e,0x3e,0xad,0x4a,0x54,0x3e,0x80,0x54,0x97,0xbd,
0x97,0x30,0xd8,0x3d,0xf5,0x5d,0x99,0x3e,0xc9,0x98,0xb6,0x39,
0xd4,0xae,0x3a,0xbe,0x1a,0xe0,0xa3,0xbe,0x10,0x58,0x01,0xbe,
0x50,0x44,0xb8,0x3c,0xc6,0x77,0x51,0x3e,0x32,0x32,0x23,0x3e,
0x08,0x28,0x8d,0xbd,0x3e,0x86,0x1f,0x3e,0x19,0x12,0x24,0xbe,
0xe6,0x4c,0x60,0x3e,0x84,0x56,0x77,0xbe,0x40,0x06,0xd0,0xbd,
0x55,0x96,0x97,0x3e,0xdf,0xd8,0x59,0xbe,0xb6,0xb3,0x52,0x3d,
0x0f,0x1f,0xa5,0xbe,0xa1,0x37,0x1e,0xbe,0x22,0xb7,0xa2,0xbe,
0x1d,0x88,0xa3,0xbe,0xb2,0xcc,0x44,0xbe,0x0a,0xd1,0x2b,0x3e,
0xfc,0xfc,0xcb,0xbd,0x31,0x8c,0x55,0xbe,0xb4,0xd3,0xa3,0x3d,
0x1a,0xed,0x8b,0xbe,0xf2,0x8d,0xa5,0xbe,0xc4,0xad,0xb2,0xbd,
0xb0,0x77,0x84,0xbd,0x8f,0xb8,0xb0,0x3e,0x75,0x39,0xb2,0xbe,
0x70,0xb6,0x0e,0x3d,0x0a,0x09,0x66,0x3e,0xa7,0xab,0x9b,0xbe,
0xc2,0x2d,0xa5,0xbe,0x05,0xea,0x00,0xbe,0x14,0x93,0x8b,0xbe,
0x6f,0xee,0xb4,0x3e,0xf4,0x5a,0xa3,0x3d,0x62,0xfa,0x74,0xbe,
0xfe,0x9e,0x2d,0x3e,0x62,0x8d,0xa9,0xbe,0x70,0xc2,0x4f,0xbd,
0xe0,0x61,0x1e,0x3c,0x3e,0x20,0x3e,0x3e,0xac,0xf8,0x91,0xbe,
0xc6,0x2e,0xfa,0xbd,0xf4,0xaa,0x99,0x3d,0x60,0xc7,0x08,0x3e,
0x9c,0x2e,0xfe,0x3d,0x34,0xad,0xab,0xbe,0xa1,0x9a,0xa9,0x3e,
0x2c,0xa7,0x9f,0x3d,0xc0,0xc4,0xe8,0xbc,0xc2,0x8f,0x8c,0xbe,
0xcb,0x4a,0x58,0xbe,0x76,0x6a,0x96,0xbe,0xe6,0xf7,0x2f,0x3e,
0x38,0x96,0xc0,0xbd,0x56,0xdc,0x76,0x3e,0xf1,0x6c,0x67,0xbe,
0xa2,0x45,0x9f,0xbe,0xbc,0x19,0x9b,0xbe,0xc5,0xd4,0xab,0x3e,
0xec,0xca,0xae,0xbe,0x40,0x1a,0xe4,0x3d,0x5f,0xa8,0x9d,0x3e,
0x07,0x37,0x0a,0xbe,0x67,0x90,0x1c,0xbe,0x9f,0x4a,0x63,0xbe,
0xff,0x0e,0x65,0xbe,0xc0,0x7c,0xaa,0xbd,0x6c,0x1b,0x9f,0xbd,
0xb9,0xce,0x84,0x3e,0x79,0x0e,0x82,0x3e,0x57,0x14,0x94,0x3e,
0xb9,0xde,0xa3,0x3e,0x70,0xd1,0x7a,0x3d,0x66,0x32,0x41,0x3e,
0x1b,0xaf,0xb1,0xbe,0x80,0x4f,0x44,0xbb,0x02,0x45,0x07,0xbe,
0x60,0xd0,0xa8,0x3d,0x85,0xea,0x77,0x3e,0x7a,0xd1,0x46,0x3e,
0x3f,0xc2,0xdc,0xbd,0x90,0xb8,0x8e,0xbe,0x08,0x83,0x2d,0x3e,
0x0c,0x49,0xe9,0xbd,0x5f,0x25,0x8c,0x3e,0xd6,0xf2,0xff,0x3d,
0xc9,0x5e,0xad,0xbe,0x28,0xce,0x92,0x3e,0xcf,0x6c,0x00,0xbe,
0x6c,0x7a,0x62,0x3e,0x14,0x09,0xaa,0xbe,0x45,0xe1,0xaf,0x3d,
0xbf,0x11,0x8c,0xbe,0x58,0xbc,0x29,0xbd,0x89,0x33,0xb3,0xbe,
0x58,0x38,0xe7,0x3d,0xe1,0x62,0x60,0xbe,0x59,0x7a,0xa3,0xbd,
0xb0,0xf8,0x8b,0x3d,0x04,0xc3,0x7d,0x3d,0x65,0x8d,0xe9,0xbd,
0x3f,0xa2,0x67,0x3e,0xb0,0xd6,0xdf,0xbc,0x3a,0xd7,0x2b,0x3e,
0xe2,0x4f,0x9a,0xbd,0x52,0x11,0xb1,0xbd,0x1b,0xa1,0x06,0xbd,
0x31,0x88,0x5d,0xbe,0xfc,0xd9,0x72,0xbe,0xdf,0xbb,0x0a,0xbe,
0xde,0x05,0x16,0xbe,0x0e,0xdf,0x09,0x3e,0x04,0x7f,0xc6,0x3d,
0xcc,0xf0,0xc9,0x3d,0x6b,0x9c,0xb6,0x3d,0x16,0xa7,0x5c,0x3e,
0xf3,0xbd,0xb3,0x3e,0x55,0x46,0x30,0xbe,0x8e,0x8e,0xbf,0xbe,
0xbf,0xc3,0x91,0xbe,0x2a,0x17,0x25,0xbd,0xc0,0x57,0x82,0xbe,
0xc8,0x0b,0xcc,0x3d,0xbc,0x1b,0x42,0xbe,0x5e,0x57,0x00,0x3e,
0x6f,0x19,0x91,0xbe,0x64,0xda,0xac,0xbd,0x28,0x9f,0x36,0x3d,
0xd1,0xce,0xa0,0xbe,0x40,0x25,0x2a,0xbe,0xb8,0x15,0x33,0xbd,
0x6e,0xd3,0x56,0x3e,0x7d,0xab,0xb9,0xbe,0xcd,0x59,0x28,0xbd,
0x9d,0xa8,0x59,0x3e,0xf0,0x0c,0x61,0xbd,0x07,0xcf,0x5f,0xbe,
0x44,0x44,0x4e,0xbc,0xf6,0x41,0x00,0x3e,0x10,0xa8,0xf0,0x3c,
0xed,0x3e,0x94,0xbd,0xd2,0xf6,0x7f,0x3e,0x06,0x9c,0x79,0xbe,
0x62,0x5f,0x4b,0x3e,0x26,0x65,0x7a,0xbe,0x2f,0x58,0x84,0x3e,
0x71,0x49,0x43,0xbe,0xbd,0xf8,0x32,0xbe,0x33,0x12,0x54,0xbe,
0xe0,0x57,0x48,0x3c,0x2f,0xa3,0x85,0x3e,0xa0,0x72,0xb3,0x3c,
0x6e,0x7a,0x3b,0xbe,0x57,0x09,0x71,0xbe,0xa0,0xa0,0xd6,0xbd,
0xdf,0xee,0x87,0x3e,0x20,0xe4,0x0b,0x3c,0x38,0xc5,0x67,0xbe,
0x64,0x96,0xa0,0xbe,0xe0,0x90,0x96,0xbd,0xc0,0xc5,0x65,0x3c,
0x96,0x04,0x7d,0x3e,0x26,0x17,0x69,0x3e,0x80,0xb8,0x45,0x3c,
0xc0,0x2d,0x09,0xbd,0x40,0x51,0x0b,0x3e,0x77,0xed,0x82,0x3e,
0xfb,0x6f,0x04,0xbe,0x00,0x10,0x0f,0xbe,0x5c,0xc4,0xab,0x3d,
0x7d,0x99,0x1b,0xbe,0xf9,0x1e,0x8f,0x3e,0x86,0x85,0x48,0x3e,
0x00,0xc1,0xa6,0xba,0xb1,0x15,0x82,0x3d,0x46,0xd6,0x67,0x3e,
0xbd,0x94,0x98,0x3d,0x00,0xeb,0x6b,0xbc,0xd9,0x07,0x25,0xbc,
0x3d,0xb7,0x91,0x3e,0xb0,0x95,0x2c,0xbe,0xe5,0xa0,0x6f,0xbe,
0x6a,0x1e,0xe7,0x3c,0x48,0x0f,0x26,0x3e,0x37,0xd6,0x4f,0x3e,
0xb9,0xe6,0xdb,0xbd,0x87,0x06,0xa8,0x3e,0x1c,0x66,0x13,0xbe,
0x30,0x9c,0x99,0x3e,0xee,0xe7,0x0b,0xbe,0x1c,0x60,0x84,0xbe,
0xaa,0xbe,0x32,0x3e,0xfc,0xec,0x54,0xbe,0x50,0x20,0x87,0xbd,
0x94,0xc3,0x43,0xbc,0x6c,0xfa,0x86,0xbe,0x5b,0xfa,0x80,0x3e,
0x5b,0xee,0x90,0x3e,0x1e,0x3e,0x9f,0xbd,0x13,0x50,0x08,0xbe,
0xde,0x83,0xa0,0xbd,0x0c,0xf0,0x84,0x3c,0xa0,0xf9,0x93,0xbe,
0xa1,0x07,0xb7,0xbc,0x2e,0x94,0x57,0xbe,0x31,0xec,0xf8,0x3d,
0xf8,0xd2,0x62,0xbe,0x3a,0x50,0x2f,0x3e,0x32,0xdc,0x70,0xbe,
0xea,0x87,0x52,0x3e,0xcf,0x2c,0xa0,0x3e,0xb0,0x13,0xa4,0xbe,
0x8b,0x5b,0xa9,0x3e,0x87,0x5d,0xae,0xbe,0x3a,0xad,0x89,0xbe,
0xa6,0xca,0x08,0x3e,0x0a,0x43,0x1c,0xbe,0x78,0xc0,0x5d,0x3d,
0xdd,0x57,0x73,0xbe,0x1f,0xaf,0x9d,0x3e,0xe6,0xda,0x30,0xbe,
0x7e,0x24,0xfe,0xbd,0x5f,0x40,0x99,0x3e,0x67,0x27,0x99,0x3e,
0xb2,0x11,0x56,0x3e,0x6e,0xc0,0xe2,0xbd,0x15,0xf2,0x8d,0x3e,
0x95,0xca,0xa7,0xbe,0x2a,0x1f,0x2e,0x3e,0xb2,0x4e,0x1d,0x3e,
0x0e,0x1b,0x2f,0x3e,0xd2,0xba,0x54,0x3e,0x88,0x31,0x3b,0xbe,
0xed,0xb7,0x82,0x3e,0x78,0xe6,0x2d,0xbe,0xd8,0x49,0x90,0xbd,
0x38,0x92,0x48,0xbd,0xd0,0x6c,0x16,0xbe,0x4b,0xa8,0xe9,0x3c,
0x28,0x8e,0x6f,0xbe,0x0d,0x2c,0x92,0x3e,0xfe,0x8e,0x8a,0xbe,
0x2e,0x30,0x3f,0xbe,0x90,0xe4,0xa8,0xbc,0x96,0xf6,0x5b,0x3e,
0xbe,0x48,0x93,0xbe,0x89,0x1e,0x88,0xbe,0x9b,0x2e,0xeb,0x3d,
0x46,0x9e,0xf8,0x3d,0x9b,0x8f,0x4f,0xbe,0xf0,0x2e,0x87,0xbe,
0xd2,0x4b,0x33,0x3e,0x54,0x49,0xb9,0xbe,0x6c,0x5d,0xa9,0xbe,
0x7a,0x76,0x29,0x3d,0x9a,0x7f,0x1e,0x3e,0x58,0x2a,0x48,0x3d,
0xcb,0x78,0x4d,0x3d,0x5b,0xc3,0x83,0xbe,0x94,0x78,0xc4,0xbd,
0x56,0x38,0xbd,0xbe,0x32,0xa1,0x6a,0x3e,0x12,0x5f,0x6f,0x3e,
0x48,0xcb,0x46,0x3d,0xd8,0xe2,0xa2,0xbd,0xb1,0xc4,0x62,0x3d,
0x96,0x67,0xa6,0x3e,0x6a,0x19,0x7b,0xbd,0x36,0xf0,0xc5,0x3c,
0x94,0xc1,0x14,0x3e,0x88,0x5a,0x27,0xbe,0x05,0x0a,0x94,0x3e,
0xcf,0x13,0x84,0x3e,0x47,0x71,0x8f,0x3e,0x02,0xeb,0xa6,0xbe,
0x29,0xe9,0x8c,0x3e,0xb0,0x25,0xad,0x3d,0x5d,0xeb,0xbb,0xbe,
0x88,0x56,0x3d,0xbe,0x6a,0xed,0x08,0x3e,0x57,0x62,0x5b,0xbe,
0x10,0xfd,0x22,0x3e,0xfd,0x54,0x93,0x3e,0x3b,0xff,0x85,0x3e,
0x88,0xf5,0x08,0x3e,0xeb,0x42,0xa3,0x3e,0xd8,0x20,0x5f,0x3e,
0x78,0x09,0x4c,0xbe,0xe8,0xd9,0x51,0x3d,0x7a,0x6e,0x51,0x3e,
0x70,0xb5,0xc9,0xbd,0x1e,0x21,0xcf,0xbc,0x46,0x90,0x4e,0xbe,
0x3b,0x75,0x39,0x3e,0x48,0x25,0x7d,0xbd,0xd4,0x52,0x85,0xbe,
0x89,0x09,0x1c,0x3e,0x17,0x07,0x6d,0x3e,0xba,0xd7,0x28,0x3d,
0x7c,0x09,0x93,0xbe,0xff,0x71,0x9b,0x3d,0x22,0x6f,0x95,0xbe,
0x19,0x2f,0x92,0x3d,0xb4,0xd5,0xd9,0x3d,0xac,0x47,0x95,0xbe,
0xff,0x31,0x9c,0x3e,0x45,0x22,0xb1,0xbe,0x5f,0x1a,0x7f,0xbe,
0xac,0x82,0xb2,0x3d,0x09,0x51,0xc9,0xbd,0x1e,0x06,0xa2,0xbe,
0xcf,0x4b,0x75,0x3e,0xcc,0x60,0x97,0x3e,0x7c,0xf4,0x28,0x3e,
0x96,0x6d,0x36,0xbe,0x55,0x63,0x8e,0x3e,0xf2,0x54,0x03,0x3d,
0x30,0xfe,0xb9,0xbd,0xed,0x40,0x87,0xbe,0x81,0x2a,0x9b,0x3e,
0x50,0xb0,0xc9,0xbd,0x79,0x04,0x83,0xbe,0x0c,0x25,0xe8,0x3d,
0x06,0x7e,0x21,0xbe,0x89,0xe7,0x0f,0x3e,0xca,0xb7,0x60,0xbe,
0x00,0x84,0x1c,0x3a,0x10,0xb7,0xb2,0x3c,0x5d,0x14,0x79,0x3e,
0x1c,0x53,0x24,0xbe,0x49,0x57,0xc3,0xbd,0x32,0xc4,0xed,0x3d,
0x43,0x7b,0x4a,0xbd,0xb6,0xfa,0x23,0xbe,0x00,0x00,0x06,0x00,
0x08,0x00,0x04,0x00,0x06,0x00,0x00,0x00,0x04,0x00,0x00,0x00,
0x40,0x00,0x00,0x00,0xce,0x27,0xb5,0x3d,0xdd,0x19,0xd7,0x3e,
0x06,0x97,0xa2,0x3c,0x8b,0xf4,0x61,0x3e,0xe0,0xfc,0xb9,0x3e,
0x42,0xd5,0x67,0x3e,0xc0,0x45,0x41,0xbd,0xa4,0x9f,0x3f,0x3e,
0x42,0x3d,0xcd,0xbe,0xfd,0xce,0x4d,0x3e,0x75,0x97,0x03,0xbf,
0xc8,0xfa,0xdb,0xbe,0x30,0xd6,0x72,0xbd,0xf3,0x3f,0xb5,0xbc,
0xb8,0x7a,0x11,0xbf,0x36,0x6d,0x0a,0x3f,0x30,0xfb,0xff,0xff,
0x34,0xfb,0xff,0xff,0x0f,0x00,0x00,0x00,0x4d,0x4c,0x49,0x52,
0x20,0x43,0x6f,0x6e,0x76,0x65,0x72,0x74,0x65,0x64,0x2e,0x00,
0x01,0x00,0x00,0x00,0x14,0x00,0x00,0x00,0x00,0x00,0x0e,0x00,
0x18,0x00,0x14,0x00,0x10,0x00,0x0c,0x00,0x08,0x00,0x04,0x00,
0x0e,0x00,0x00,0x00,0x14,0x00,0x00,0x00,0x1c,0x00,0x00,0x00,
0xd8,0x00,0x00,0x00,0xdc,0x00,0x00,0x00,0xe0,0x00,0x00,0x00,
0x04,0x00,0x00,0x00,0x6d,0x61,0x69,0x6e,0x00,0x00,0x00,0x00,
0x03,0x00,0x00,0x00,0x80,0x00,0x00,0x00,0x38,0x00,0x00,0x00,
0x04,0x00,0x00,0x00,0x9a,0xff,0xff,0xff,0x10,0x00,0x00,0x00,
0x00,0x00,0x00,0x08,0x0c,0x00,0x00,0x00,0x10,0x00,0x00,0x00,
0xac,0xfb,0xff,0xff,0x01,0x00,0x00,0x00,0x09,0x00,0x00,0x00,
0x03,0x00,0x00,0x00,0x08,0x00,0x00,0x00,0x01,0x00,0x00,0x00,
0x03,0x00,0x00,0x00,0xca,0xff,0xff,0xff,0x10,0x00,0x00,0x00,
0x00,0x00,0x00,0x08,0x10,0x00,0x00,0x00,0x14,0x00,0x00,0x00,
0xba,0xff,0xff,0xff,0x00,0x00,0x00,0x01,0x01,0x00,0x00,0x00,
0x08,0x00,0x00,0x00,0x03,0x00,0x00,0x00,0x07,0x00,0x00,0x00,
0x02,0x00,0x00,0x00,0x04,0x00,0x00,0x00,0x00,0x00,0x0e,0x00,
0x16,0x00,0x00,0x00,0x10,0x00,0x0c,0x00,0x0b,0x00,0x04,0x00,
0x0e,0x00,0x00,0x00,0x18,0x00,0x00,0x00,0x00,0x00,0x00,0x08,
0x18,0x00,0x00,0x00,0x1c,0x00,0x00,0x00,0x00,0x00,0x06,0x00,
0x08,0x00,0x07,0x00,0x06,0x00,0x00,0x00,0x00,0x00,0x00,0x01,
0x01,0x00,0x00,0x00,0x07,0x00,0x00,0x00,0x03,0x00,0x00,0x00,
0x00,0x00,0x00,0x00,0x06,0x00,0x00,0x00,0x05,0x00,0x00,0x00,
0x01,0x00,0x00,0x00,0x09,0x00,0x00,0x00,0x01,0x00,0x00,0x00,
0x00,0x00,0x00,0x00,0x0a,0x00,0x00,0x00,0x7c,0x03,0x00,0x00,
0x24,0x03,0x00,0x00,0xcc,0x02,0x00,0x00,0x90,0x02,0x00,0x00,
0x34,0x02,0x00,0x00,0xdc,0x01,0x00,0x00,0x90,0x01,0x00,0x00,
0xfc,0x00,0x00,0x00,0x60,0x00,0x00,0x00,0x04,0x00,0x00,0x00,
0xc2,0xfc,0xff,0xff,0x00,0x00,0x00,0x01,0x14,0x00,0x00,0x00,
0x1c,0x00,0x00,0x00,0x1c,0x00,0x00,0x00,0x0a,0x00,0x00,0x00,
0x34,0x00,0x00,0x00,0x02,0x00,0x00,0x00,0xff,0xff,0xff,0xff,
0x01,0x00,0x00,0x00,0xac,0xfc,0xff,0xff,0x1b,0x00,0x00,0x00,
0x53,0x74,0x61,0x74,0x65,0x66,0x75,0x6c,0x50,0x61,0x72,0x74,
0x69,0x74,0x69,0x6f,0x6e,0x65,0x64,0x43,0x61,0x6c,0x6c,0x5f,
0x31,0x3a,0x30,0x00,0x02,0x00,0x00,0x00,0x01,0x00,0x00,0x00,
0x01,0x00,0x00,0x00,0x1a,0xfd,0xff,0xff,0x00,0x00,0x00,0x01,
0x14,0x00,0x00,0x00,0x1c,0x00,0x00,0x00,0x1c,0x00,0x00,0x00,
0x09,0x00,0x00,0x00,0x74,0x00,0x00,0x00,0x02,0x00,0x00,0x00,
0xff,0xff,0xff,0xff,0x10,0x00,0x00,0x00,0x04,0xfd,0xff,0xff,
0x58,0x00,0x00,0x00,0x73,0x65,0x71,0x75,0x65,0x6e,0x74,0x69,
0x61,0x6c,0x5f,0x31,0x2f,0x64,0x65,0x6e,0x73,0x65,0x5f,0x31,
0x5f,0x32,0x2f,0x4d,0x61,0x74,0x4d,0x75,0x6c,0x3b,0x73,0x65,
0x71,0x75,0x65,0x6e,0x74,0x69,0x61,0x6c,0x5f,0x31,0x2f,0x64,
0x65,0x6e,0x73,0x65,0x5f,0x31,0x5f,0x32,0x2f,0x52,0x65,0x6c,
0x75,0x3b,0x73,0x65,0x71,0x75,0x65,0x6e,0x74,0x69,0x61,0x6c,
0x5f,0x31,0x2f,0x64,0x65,0x6e,0x73,0x65,0x5f,0x31,0x5f,0x32,
0x2f,0x42,0x69,0x61,0x73,0x41,0x64,0x64,0x00,0x00,0x00,0x00,
0x02,0x00,0x00,0x00,0x01,0x00,0x00,0x00,0x10,0x00,0x00,0x00,
0xb2,0xfd,0xff,0xff,0x00,0x00,0x00,0x01,0x14,0x00,0x00,0x00,
0x1c,0x00,0x00,0x00,0x1c,0x00,0x00,0x00,0x08,0x00,0x00,0x00,
0x6c,0x00,0x00,0x00,0x02,0x00,0x00,0x00,0xff,0xff,0xff,0xff,
0x20,0x00,0x00,0x00,0x9c,0xfd,0xff,0xff,0x52,0x00,0x00,0x00,
0x73,0x65,0x71,0x75,0x65,0x6e,0x74,0x69,0x61,0x6c,0x5f,0x31,
0x2f,0x64,0x65,0x6e,0x73,0x65,0x5f,0x31,0x2f,0x4d,0x61,0x74,
0x4d,0x75,0x6c,0x3b,0x73,0x65,0x71,0x75,0x65,0x6e,0x74,0x69,
0x61,0x6c,0x5f,0x31,0x2f,0x64,0x65,0x6e,0x73,0x65,0x5f,0x31,
0x2f,0x52,0x65,0x6c,0x75,0x3b,0x73,0x65,0x71,0x75,0x65,0x6e,
0x74,0x69,0x61,0x6c,0x5f,0x31,0x2f,0x64,0x65,0x6e,0x73,0x65,
0x5f,0x31,0x2f,0x42,0x69,0x61,0x73,0x41,0x64,0x64,0x00,0x00,
0x02,0x00,0x00,0x00,0x01,0x00,0x00,0x00,0x20,0x00,0x00,0x00,
0x96,0xfe,0xff,0xff,0x00,0x00,0x00,0x01,0x10,0x00,0x00,0x00,
0x10,0x00,0x00,0x00,0x07,0x00,0x00,0x00,0x28,0x00,0x00,0x00,
0x1c,0xfe,0xff,0xff,0x1b,0x00,0x00,0x00,0x73,0x65,0x71,0x75,
0x65,0x6e,0x74,0x69,0x61,0x6c,0x5f,0x31,0x2f,0x64,0x65,0x6e,
0x73,0x65,0x5f,0x31,0x2f,0x4d,0x61,0x74,0x4d,0x75,0x6c,0x00,
0x02,0x00,0x00,0x00,0x20,0x00,0x00,0x00,0x14,0x00,0x00,0x00,
0xde,0xfe,0xff,0xff,0x00,0x00,0x00,0x01,0x10,0x00,0x00,0x00,
0x10,0x00,0x00,0x00,0x06,0x00,0x00,0x00,0x38,0x00,0x00,0x00,
0x64,0xfe,0xff,0xff,0x2b,0x00,0x00,0x00,0x73,0x65,0x71,0x75,
0x65,0x6e,0x74,0x69,0x61,0x6c,0x5f,0x31,0x2f,0x64,0x65,0x6e,
0x73,0x65,0x5f,0x31,0x2f,0x42,0x69,0x61,0x73,0x41,0x64,0x64,
0x2f,0x52,0x65,0x61,0x64,0x56,0x61,0x72,0x69,0x61,0x62,0x6c,
0x65,0x4f,0x70,0x00,0x01,0x00,0x00,0x00,0x20,0x00,0x00,0x00,
0x32,0xff,0xff,0xff,0x00,0x00,0x00,0x01,0x10,0x00,0x00,0x00,
0x10,0x00,0x00,0x00,0x05,0x00,0x00,0x00,0x3c,0x00,0x00,0x00,
0xb8,0xfe,0xff,0xff,0x2d,0x00,0x00,0x00,0x73,0x65,0x71,0x75,
0x65,0x6e,0x74,0x69,0x61,0x6c,0x5f,0x31,0x2f,0x64,0x65,0x6e,
0x73,0x65,0x5f,0x31,0x5f,0x32,0x2f,0x42,0x69,0x61,0x73,0x41,
0x64,0x64,0x2f,0x52,0x65,0x61,0x64,0x56,0x61,0x72,0x69,0x61,
0x62,0x6c,0x65,0x4f,0x70,0x00,0x00,0x00,0x01,0x00,0x00,0x00,
0x10,0x00,0x00,0x00,0x8a,0xff,0xff,0xff,0x00,0x00,0x00,0x01,
0x10,0x00,0x00,0x00,0x10,0x00,0x00,0x00,0x04,0x00,0x00,0x00,
0x1c,0x00,0x00,0x00,0x10,0xff,0xff,0xff,0x0f,0x00,0x00,0x00,
0x61,0x72,0x69,0x74,0x68,0x2e,0x63,0x6f,0x6e,0x73,0x74,0x61,
0x6e,0x74,0x32,0x00,0x01,0x00,0x00,0x00,0x01,0x00,0x00,0x00,
0xc2,0xff,0xff,0xff,0x00,0x00,0x00,0x01,0x10,0x00,0x00,0x00,
0x10,0x00,0x00,0x00,0x03,0x00,0x00,0x00,0x1c,0x00,0x00,0x00,
0x48,0xff,0xff,0xff,0x0f,0x00,0x00,0x00,0x61,0x72,0x69,0x74,
0x68,0x2e,0x63,0x6f,0x6e,0x73,0x74,0x61,0x6e,0x74,0x31,0x00,
0x02,0x00,0x00,0x00,0x10,0x00,0x00,0x00,0x20,0x00,0x00,0x00,
0x00,0x00,0x16,0x00,0x18,0x00,0x14,0x00,0x00,0x00,0x10,0x00,
0x0c,0x00,0x08,0x00,0x00,0x00,0x00,0x00,0x00,0x00,0x07,0x00,
0x16,0x00,0x00,0x00,0x00,0x00,0x00,0x01,0x10,0x00,0x00,0x00,
0x10,0x00,0x00,0x00,0x02,0x00,0x00,0x00,0x1c,0x00,0x00,0x00,
0x9c,0xff,0xff,0xff,0x0e,0x00,0x00,0x00,0x61,0x72,0x69,0x74,
0x68,0x2e,0x63,0x6f,0x6e,0x73,0x74,0x61,0x6e,0x74,0x00,0x00,
0x02,0x00,0x00,0x00,0x01,0x00,0x00,0x00,0x10,0x00,0x00,0x00,
0x00,0x00,0x16,0x00,0x1c,0x00,0x18,0x00,0x00,0x00,0x14,0x00,
0x10,0x00,0x0c,0x00,0x00,0x00,0x00,0x00,0x08,0x00,0x07,0x00,
0x16,0x00,0x00,0x00,0x00,0x00,0x00,0x01,0x14,0x00,0x00,0x00,
0x20,0x00,0x00,0x00,0x20,0x00,0x00,0x00,0x01,0x00,0x00,0x00,
0x3c,0x00,0x00,0x00,0x02,0x00,0x00,0x00,0xff,0xff,0xff,0xff,
0x14,0x00,0x00,0x00,0x04,0x00,0x04,0x00,0x04,0x00,0x00,0x00,
0x1e,0x00,0x00,0x00,0x73,0x65,0x72,0x76,0x69,0x6e,0x67,0x5f,
0x64,0x65,0x66,0x61,0x75,0x6c,0x74,0x5f,0x6b,0x65,0x72,0x61,
0x73,0x5f,0x74,0x65,0x6e,0x73,0x6f,0x72,0x3a,0x30,0x00,0x00,
0x02,0x00,0x00,0x00,0x01,0x00,0x00,0x00,0x14,0x00,0x00,0x00,
0x01,0x00,0x00,0x00,0x10,0x00,0x00,0x00,0x0c,0x00,0x0c,0x00,
0x0b,0x00,0x00,0x00,0x00,0x00,0x04,0x00,0x0c,0x00,0x00,0x00,
0x09,0x00,0x00,0x00,0x00,0x00,0x00,0x09
};
const unsigned int g_model_len = 6752;
